<unk>	0
<s>	0
</s>	0
<pad>	0
▁t	-0
he	-1
▁a	-2
in	-3
▁the	-4
er	-5
on	-6
▁,	-7
re	-8
▁s	-9
ed	-10
▁o	-11
▁w	-12
nd	-13
▁.	-14
at	-15
or	-16
▁c	-17
it	-18
en	-19
▁f	-20
is	-21
es	-22
ar	-23
▁of	-24
▁b	-25
an	-26
▁in	-27
al	-28
ing	-29
▁p	-30
as	-31
▁and	-32
▁to	-33
▁m	-34
ro	-35
ic	-36
▁d	-37
▁h	-38
ion	-39
le	-40
▁T	-41
ou	-42
▁re	-43
▁A	-44
▁"	-45
▁S	-46
ent	-47
il	-48
▁1	-49
▁th	-50
st	-51
▁l	-52
el	-53
▁C	-54
am	-55
om	-56
▁n	-57
▁@	-58
▁e	-59
ac	-60
ad	-61
▁was	-62
▁M	-63
ur	-64
▁The	-65
▁on	-66
ly	-67
ec	-68
▁I	-69
▁g	-70
▁B	-71
▁'	-72
et	-73
id	-74
ol	-75
iv	-76
im	-77
▁for	-78
-@	-79
▁@-@	-80
ir	-81
ig	-82
ter	-83
us	-84
▁as	-85
ot	-86
ow	-87
▁H	-88
▁2	-89
▁st	-90
ith	-91
ay	-92
ut	-93
her	-94
▁be	-95
ver	-96
▁P	-97
▁with	-98
ation	-99
▁is	-100
▁that	-101
th	-102
ce	-103
un	-104
▁D	-105
em	-106
▁R	-107
▁)	-108
▁(	-109
▁by	-110
▁wh	-111
▁F	-112
ul	-113
▁al	-114
ch	-115
▁con	-116
▁W	-117
ra	-118
▁G	-119
▁L	-120
▁it	-121
▁N	-122
▁at	-123
os	-124
ct	-125
▁19	-126
um	-127
rom	-128
▁an	-129
ers	-130
and	-131
▁J	-132
00	-133
est	-134
ag	-135
▁he	-136
od	-137
av	-138
ist	-139
ain	-140
ri	-141
▁O	-142
▁E	-143
▁from	-144
▁com	-145
res	-146
▁his	-147
if	-148
▁pro	-149
ies	-150
▁v	-151
op	-152
ort	-153
ore	-154
ill	-155
▁de	-156
▁r	-157
▁su	-158
▁se	-159
ld	-160
pp	-161
▁In	-162
ong	-163
all	-164
ere	-165
ew	-166
art	-167
ate	-168
igh	-169
ard	-170
ak	-171
▁or	-172
▁ch	-173
ich	-174
▁were	-175
ud	-176
ant	-177
ber	-178
ab	-179
▁are	-180
ity	-181
ated	-182
oc	-183
ear	-184
ess	-185
gh	-186
▁ex	-187
▁K	-188
ame	-189
ive	-190
▁pl	-191
qu	-192
pt	-193
▁k	-194
▁sh	-195
rou	-196
ect	-197
▁U	-198
ack	-199
se	-200
▁which	-201
ov	-202
▁St	-203
ast	-204
▁sp	-205
red	-206
▁had	-207
▁y	-208
ally	-209
▁le	-210
ian	-211
ge	-212
ord	-213
ip	-214
ell	-215
ine	-216
ment	-217
▁3	-218
▁not	-219
our	-220
ap	-221
ost	-222
ave	-223
ther	-224
oun	-225
ia	-226
rit	-227
▁200	-228
▁u	-229
ight	-230
ust	-231
▁Ch	-232
ish	-233
ary	-234
▁un	-235
irst	-236
▁inc	-237
▁V	-238
ous	-239
og	-240
▁comp	-241
ide	-242
cc	-243
▁;	-244
ru	-245
▁int	-246
so	-247
▁its	-248
▁first	-249
▁20	-250
fter	-251
▁but	-252
ions	-253
ical	-254
ure	-255
ial	-256
▁whe	-257
▁their	-258
▁–	-259
▁cont	-260
own	-261
wo	-262
hed	-263
▁ar	-264
▁her	-265
▁:	-266
out	-267
▁also	-268
ue	-269
ub	-270
ran	-271
ould	-272
ater	-273
▁cl	-274
ass	-275
ff	-276
ome	-277
ok	-278
▁us	-279
ie	-280
orm	-281
ign	-282
▁has	-283
▁have	-284
per	-285
ire	-286
end	-287
▁ad	-288
▁rec	-289
▁ab	-290
ork	-291
▁res	-292
.@	-293
▁@.@	-294
▁4	-295
ry	-296
▁one	-297
age	-298
▁He	-299
▁ro	-300
▁5	-301
mer	-302
▁Al	-303
▁It	-304
land	-305
▁two	-306
low	-307
▁sc	-308
ond	-309
ree	-310
▁been	-311
ime	-312
du	-313
▁Th	-314
▁per	-315
ric	-316
▁who	-317
ile	-318
uring	-319
▁201	-320
▁app	-321
ence	-322
iz	-323
ough	-324
lud	-325
▁18	-326
▁j	-327
ult	-328
▁bec	-329
are	-330
▁part	-331
ach	-332
ition	-333
▁dis	-334
▁this	-335
pl	-336
ely	-337
ount	-338
▁man	-339
▁year	-340
▁over	-341
▁play	-342
ory	-343
▁des	-344
▁other	-345
ound	-346
ib	-347
ations	-348
ade	-349
act	-350
▁ag	-351
▁ser	-352
▁after	-353
▁Y	-354
,@	-355
▁@,@	-356
ark	-357
▁they	-358
te	-359
ens	-360
urn	-361
▁includ	-362
over	-363
ke	-364
▁off	-365
ress	-366
ace	-367
wn	-368
ember	-369
ice	-370
ction	-371
ite	-372
▁im	-373
ance	-374
ph	-375
ang	-376
▁pre	-377
▁up	-378
▁out	-379
▁en	-380
▁6	-381
▁into	-382
we	-383
rough	-384
▁fin	-385
▁time	-386
ren	-387
ey	-388
▁att	-389
▁ev	-390
ced	-391
ason	-392
man	-393
▁Un	-394
▁she	-395
port	-396
amp	-397
int	-398
les	-399
▁cent	-400
vel	-401
ased	-402
ied	-403
ward	-404
▁On	-405
▁te	-406
▁all	-407
▁more	-408
nder	-409
▁we	-410
tern	-411
▁comm	-412
▁7	-413
ild	-414
ited	-415
rop	-416
ates	-417
round	-418
ever	-419
ix	-420
oy	-421
ings	-422
rib	-423
ood	-424
able	-425
ents	-426
ces	-427
als	-428
▁would	-429
ose	-430
ors	-431
▁song	-432
one	-433
ious	-434
ase	-435
▁fe	-436
▁An	-437
▁him	-438
ath	-439
▁kn	-440
fer	-441
▁work	-442
▁sec	-443
ep	-444
orth	-445
▁po	-446
▁9	-447
ict	-448
old	-449
▁bet	-450
▁when	-451
▁8	-452
ail	-453
way	-454
▁rem	-455
ake	-456
▁ear	-457
▁during	-458
gan	-459
ved	-460
ilm	-461
▁199	-462
▁cons	-463
▁most	-464
ered	-465
ug	-466
aus	-467
ind	-468
iss	-469
▁As	-470
▁can	-471
form	-472
aw	-473
ft	-474
▁them	-475
▁tr	-476
▁new	-477
ubl	-478
outh	-479
▁game	-480
▁only	-481
ween	-482
ick	-483
ons	-484
ational	-485
▁season	-486
▁dec	-487
▁Mar	-488
oth	-489
att	-490
ters	-491
ollow	-492
▁rel	-493
▁record	-494
▁than	-495
▁three	-496
ral	-497
▁En	-498
▁me	-499
▁about	-500
ob	-501
ook	-502
▁between	-503
▁num	-504
orn	-505
▁col	-506
reat	-507
▁rele	-508
▁ver	-509
ve	-510
fore	-511
ular	-512
▁through	-513
▁film	-514
▁form	-515
▁produ	-516
▁end	-517
▁under	-518
▁fl	-519
▁char	-520
▁later	-521
▁Ar	-522
hip	-523
iew	-524
▁again	-525
hn	-526
ury	-527
▁spec	-528
▁Se	-529
▁pr	-530
▁reg	-531
▁pe	-532
▁00	-533
▁ne	-534
ision	-535
▁pos	-536
▁mus	-537
▁while	-538
ts	-539
▁Com	-540
bum	-541
▁writ	-542
▁act	-543
▁where	-544
ock	-545
ron	-546
▁sub	-547
▁so	-548
hes	-549
▁ra	-550
▁lar	-551
▁bu	-552
▁New	-553
orld	-554
▁made	-555
▁co	-556
ames	-557
▁mov	-558
ener	-559
▁second	-560
ins	-561
ted	-562
ating	-563
ished	-564
meric	-565
▁qu	-566
▁ep	-567
▁Le	-568
▁At	-569
▁Americ	-570
▁inter	-571
▁0	-572
▁ass	-573
▁ac	-574
ike	-575
▁used	-576
ans	-577
▁acc	-578
▁four	-579
▁some	-580
▁such	-581
▁def	-582
▁ind	-583
ived	-584
▁ret	-585
ific	-586
ann	-587
▁album	-588
ual	-589
▁call	-590
ily	-591
lect	-592
ros	-593
▁follow	-594
▁am	-595
▁This	-596
hen	-597
▁high	-598
iel	-599
▁do	-600
rans	-601
▁day	-602
▁before	-603
▁sy	-604
▁10	-605
ode	-606
▁epis	-607
olog	-608
▁000	-609
▁bl	-610
▁Sh	-611
uc	-612
▁being	-613
ird	-614
▁ent	-615
▁Jo	-616
▁years	-617
▁number	-618
owever	-619
▁Re	-620
▁found	-621
io	-622
ics	-623
ll	-624
▁no	-625
ek	-626
ane	-627
ten	-628
other	-629
▁publ	-630
ars	-631
aid	-632
▁mon	-633
▁loc	-634
▁/	-635
igin	-636
▁known	-637
▁tra	-638
▁there	-639
▁series	-640
▁Eng	-641
▁sing	-642
▁sur	-643
▁12	-644
▁set	-645
row	-646
▁supp	-647
ince	-648
ise	-649
iver	-650
ton	-651
any	-652
ines	-653
aj	-654
▁sever	-655
ject	-656
velop	-657
irect	-658
▁pres	-659
▁well	-660
▁dep	-661
▁trans	-662
ures	-663
▁16	-664
ised	-665
▁198	-666
▁including	-667
ause	-668
▁go	-669
ities	-670
ife	-671
its	-672
▁United	-673
ale	-674
pr	-675
ool	-676
▁both	-677
ank	-678
▁add	-679
ather	-680
▁then	-681
▁15	-682
urch	-683
ield	-684
▁charac	-685
ram	-686
▁origin	-687
▁long	-688
▁Sc	-689
son	-690
iam	-691
▁She	-692
ern	-693
▁became	-694
▁episode	-695
ident	-696
▁back	-697
pen	-698
▁main	-699
▁rece	-700
▁min	-701
ert	-702
▁century	-703
ah	-704
ober	-705
up	-706
▁Z	-707
▁many	-708
▁inv	-709
▁met	-710
▁Brit	-711
▁against	-712
▁perform	-713
ful	-714
led	-715
ained	-716
though	-717
air	-718
ower	-719
▁may	-720
▁stud	-721
▁pop	-722
ier	-723
ute	-724
ning	-725
uch	-726
▁em	-727
▁team	-728
▁11	-729
▁dif	-730
ative	-731
▁desc	-732
ined	-733
▁exp	-734
▁develop	-735
▁sm	-736
▁cre	-737
▁mill	-738
ley	-739
▁John	-740
▁—	-741
▁lead	-742
▁17	-743
▁several	-744
ually	-745
▁show	-746
▁197	-747
▁rep	-748
ement	-749
ross	-750
ized	-751
iet	-752
ivers	-753
▁ext	-754
▁sign	-755
els	-756
erm	-757
yp	-758
▁After	-759
ik	-760
▁est	-761
▁direct	-762
oot	-763
view	-764
ared	-765
der	-766
ium	-767
▁art	-768
▁feat	-769
elf	-770
▁called	-771
▁bro	-772
ven	-773
au	-774
ired	-775
▁comple	-776
az	-777
une	-778
▁Is	-779
▁run	-780
▁conc	-781
▁dist	-782
▁km	-783
▁near	-784
▁ob	-785
▁along	-786
▁194	-787
▁Ind	-788
▁contin	-789
▁released	-790
▁Car	-791
ove	-792
▁May	-793
▁early	-794
imes	-795
▁city	-796
▁began	-797
overn	-798
▁pol	-799
▁196	-800
▁American	-801
emb	-802
ople	-803
roup	-804
▁Wh	-805
▁ins	-806
ments	-807
enn	-808
gest	-809
▁Con	-810
▁crit	-811
▁hist	-812
til	-813
▁start	-814
amed	-815
▁mil	-816
▁appear	-817
ains	-818
apt	-819
▁did	-820
ccess	-821
▁said	-822
ull	-823
▁bel	-824
▁same	-825
▁car	-826
aking	-827
▁gener	-828
▁down	-829
▁these	-830
▁music	-831
ured	-832
yl	-833
ued	-834
ruct	-835
▁fam	-836
▁inst	-837
ty	-838
ink	-839
▁prev	-840
▁design	-841
▁Bl	-842
▁Aug	-843
▁could	-844
▁describ	-845
▁oper	-846
▁August	-847
▁imp	-848
▁inf	-849
▁War	-850
▁const	-851
▁million	-852
ially	-853
▁though	-854
stem	-855
▁disc	-856
▁prov	-857
▁ship	-858
▁area	-859
ists	-860
▁north	-861
▁Aust	-862
▁resp	-863
▁13	-864
▁use	-865
cept	-866
osed	-867
chool	-868
▁like	-869
▁They	-870
▁British	-871
ible	-872
my	-873
▁Br	-874
▁land	-875
▁pass	-876
▁until	-877
▁open	-878
▁%	-879
ajor	-880
▁air	-881
▁occ	-882
ash	-883
ole	-884
▁Ju	-885
ange	-886
▁any	-887
xt	-888
▁ph	-889
▁count	-890
▁Sept	-891
▁small	-892
ided	-893
▁Ger	-894
▁mat	-895
▁own	-896
▁sim	-897
▁return	-898
▁Chr	-899
ting	-900
ales	-901
▁ele	-902
▁war	-903
▁success	-904
▁Sp	-905
▁six	-906
▁191	-907
▁people	-908
▁However	-909
▁because	-910
▁gr	-911
▁win	-912
▁September	-913
ouse	-914
▁dam	-915
ony	-916
ues	-917
ution	-918
erv	-919
▁offic	-920
und	-921
▁around	-922
▁Me	-923
▁Cl	-924
▁All	-925
ets	-926
ism	-927
▁mod	-928
▁group	-929
▁character	-930
▁var	-931
▁five	-932
anc	-933
▁head	-934
▁Pl	-935
▁Col	-936
erson	-937
▁gu	-938
▁each	-939
▁point	-940
wards	-941
▁tit	-942
ffect	-943
▁week	-944
ropical	-945
▁consid	-946
▁II	-947
▁name	-948
▁World	-949
▁North	-950
▁Ad	-951
ble	-952
▁ed	-953
▁adv	-954
▁States	-955
ague	-956
raph	-957
▁ann	-958
▁14	-959
▁195	-960
▁large	-961
aur	-962
yc	-963
dom	-964
ording	-965
▁Comm	-966
▁support	-967
▁Eu	-968
ives	-969
ling	-970
ox	-971
▁br	-972
▁will	-973
▁system	-974
▁following	-975
▁result	-976
▁since	-977
▁south	-978
▁Oct	-979
oss	-980
▁US	-981
▁final	-982
ural	-983
ored	-984
▁June	-985
▁govern	-986
oman	-987
ai	-988
▁For	-989
ified	-990
ck	-991
▁Austral	-992
aced	-993
ball	-994
▁received	-995
▁October	-996
▁state	-997
uth	-998
▁major	-999
ged	-1000
▁species	-1001
ilt	-1002
ional	-1003
ient	-1004
▁German	-1005
▁storm	-1006
▁single	-1007
▁report	-1008
▁ever	-1009
ody	-1010
▁De	-1011
▁book	-1012
ately	-1013
▁Fran	-1014
▁line	-1015
▁prom	-1016
▁child	-1017
▁class	-1018
▁Q	-1019
▁Nov	-1020
▁rest	-1021
raft	-1022
▁str	-1023
▁193	-1024
ended	-1025
lish	-1026
▁partic	-1027
ility	-1028
▁July	-1029
gin	-1030
aving	-1031
ax	-1032
ys	-1033
▁$	-1034
▁York	-1035
ivision	-1036
ger	-1037
▁King	-1038
ideo	-1039
▁life	-1040
▁Dec	-1041
▁mar	-1042
▁won	-1043
med	-1044
ively	-1045
iving	-1046
▁contro	-1047
▁differ	-1048
▁Par	-1049
▁last	-1050
ham	-1051
ants	-1052
ina	-1053
▁25	-1054
▁late	-1055
ont	-1056
▁now	-1057
▁build	-1058
▁Her	-1059
omet	-1060
eb	-1061
▁South	-1062
▁And	-1063
tle	-1064
sion	-1065
▁named	-1066
▁[	-1067
▁]	-1068
ats	-1069
ages	-1070
rand	-1071
▁Jan	-1072
ides	-1073
▁port	-1074
▁played	-1075
ech	-1076
▁sl	-1077
▁par	-1078
▁third	-1079
▁Christ	-1080
▁old	-1081
ards	-1082
rote	-1083
▁hel	-1084
▁typ	-1085
get	-1086
▁just	-1087
▁top	-1088
ically	-1089
▁short	-1090
▁world	-1091
pril	-1092
▁serv	-1093
▁April	-1094
urric	-1095
▁home	-1096
▁track	-1097
▁Gu	-1098
▁attack	-1099
ner	-1100
▁family	-1101
▁water	-1102
▁30	-1103
uary	-1104
▁due	-1105
▁took	-1106
▁Europ	-1107
ene	-1108
iod	-1109
▁Can	-1110
ission	-1111
▁care	-1112
..	-1113
ract	-1114
▁star	-1115
▁what	-1116
ae	-1117
▁allow	-1118
▁public	-1119
▁poss	-1120
▁incre	-1121
▁described	-1122
by	-1123
que	-1124
ection	-1125
ital	-1126
▁appro	-1127
app	-1128
▁camp	-1129
▁based	-1130
▁...	-1131
▁death	-1132
▁det	-1133
aim	-1134
inc	-1135
akes	-1136
▁included	-1137
ms	-1138
▁conf	-1139
▁prot	-1140
ple	-1141
▁best	-1142
▁list	-1143
▁much	-1144
▁November	-1145
eder	-1146
empt	-1147
▁event	-1148
▁previous	-1149
▁Mc	-1150
▁prog	-1151
amb	-1152
ched	-1153
omin	-1154
▁another	-1155
ians	-1156
aster	-1157
ently	-1158
▁school	-1159
▁National	-1160
▁Ph	-1161
▁within	-1162
▁cap	-1163
▁review	-1164
▁December	-1165
ery	-1166
hel	-1167
ret	-1168
▁Be	-1169
▁batt	-1170
▁Ge	-1171
▁ref	-1172
▁even	-1173
▁wrote	-1174
▁His	-1175
▁Pro	-1176
▁tri	-1177
▁There	-1178
▁During	-1179
▁original	-1180
▁men	-1181
▁March	-1182
▁although	-1183
▁hum	-1184
oad	-1185
▁very	-1186
iation	-1187
let	-1188
▁lit	-1189
▁2010	-1190
▁turn	-1191
ilar	-1192
ps	-1193
▁organ	-1194
ays	-1195
▁When	-1196
▁left	-1197
▁video	-1198
▁Mus	-1199
ached	-1200
▁if	-1201
▁built	-1202
▁100	-1203
avy	-1204
itions	-1205
▁period	-1206
▁power	-1207
arn	-1208
ung	-1209
▁bre	-1210
▁January	-1211
hest	-1212
▁place	-1213
▁dr	-1214
rown	-1215
▁City	-1216
▁hand	-1217
▁2009	-1218
▁games	-1219
▁story	-1220
▁those	-1221
▁gun	-1222
▁England	-1223
▁vis	-1224
▁common	-1225
ler	-1226
ript	-1227
alf	-1228
▁mark	-1229
▁192	-1230
▁ant	-1231
▁sent	-1232
ulation	-1233
urricane	-1234
▁sug	-1235
▁Europe	-1236
iversity	-1237
ison	-1238
ness	-1239
▁Man	-1240
▁attempt	-1241
eng	-1242
idge	-1243
ances	-1244
▁2008	-1245
▁wind	-1246
▁requ	-1247
▁fur	-1248
▁belie	-1249
iven	-1250
ature	-1251
ences	-1252
▁2007	-1253
▁make	-1254
alk	-1255
▁eng	-1256
ented	-1257
▁moved	-1258
▁By	-1259
oard	-1260
ology	-1261
▁opp	-1262
▁estab	-1263
▁local	-1264
▁government	-1265
oint	-1266
ves	-1267
▁X	-1268
elt	-1269
▁Pr	-1270
ense	-1271
rench	-1272
aken	-1273
▁Ab	-1274
aged	-1275
ected	-1276
▁great	-1277
▁med	-1278
▁term	-1279
ention	-1280
por	-1281
▁deb	-1282
▁came	-1283
ruction	-1284
▁Or	-1285
▁leg	-1286
ister	-1287
itary	-1288
▁kill	-1289
▁month	-1290
▁expl	-1291
sh	-1292
side	-1293
▁club	-1294
▁stand	-1295
▁different	-1296
esp	-1297
▁Fl	-1298
▁dem	-1299
▁often	-1300
▁addition	-1301
▁We	-1302
▁tw	-1303
▁recorded	-1304
▁town	-1305
gy	-1306
▁repl	-1307
▁caus	-1308
▁view	-1309
▁21	-1310
▁tem	-1311
▁still	-1312
▁suggest	-1313
▁considered	-1314
▁tropical	-1315
ival	-1316
aining	-1317
▁led	-1318
▁role	-1319
▁church	-1320
be	-1321
▁elect	-1322
▁right	-1323
rew	-1324
line	-1325
▁iss	-1326
astern	-1327
▁French	-1328
▁person	-1329
▁written	-1330
lev	-1331
ops	-1332
▁cover	-1333
▁side	-1334
▁refer	-1335
bs	-1336
ior	-1337
▁level	-1338
▁import	-1339
▁similar	-1340
ott	-1341
▁bas	-1342
uted	-1343
▁few	-1344
▁command	-1345
ches	-1346
▁cur	-1347
▁mid	-1348
▁dest	-1349
▁Bar	-1350
▁dra	-1351
▁2011	-1352
▁init	-1353
▁road	-1354
▁tot	-1355
ience	-1356
▁2006	-1357
▁capt	-1358
ograph	-1359
▁effect	-1360
▁el	-1361
atter	-1362
▁River	-1363
▁English	-1364
read	-1365
lu	-1366
▁Char	-1367
▁trad	-1368
ensive	-1369
▁23	-1370
ead	-1371
▁Acc	-1372
▁player	-1373
▁Park	-1374
▁auth	-1375
▁east	-1376
▁held	-1377
ampions	-1378
▁repres	-1379
ining	-1380
▁west	-1381
▁&	-1382
▁take	-1383
▁songs	-1384
▁Am	-1385
▁nov	-1386
▁next	-1387
▁version	-1388
▁nort	-1389
ories	-1390
ternational	-1391
▁fore	-1392
▁low	-1393
riend	-1394
▁Batt	-1395
ots	-1396
▁26	-1397
▁Tr	-1398
▁half	-1399
▁former	-1400
▁release	-1401
fric	-1402
▁sol	-1403
▁foot	-1404
▁title	-1405
▁Division	-1406
▁One	-1407
▁way	-1408
▁Will	-1409
▁League	-1410
▁24	-1411
▁published	-1412
▁memb	-1413
▁cour	-1414
▁real	-1415
▁Count	-1416
▁State	-1417
reen	-1418
ried	-1419
▁Old	-1420
▁Sim	-1421
▁sold	-1422
▁field	-1423
▁No	-1424
mp	-1425
▁Te	-1426
ression	-1427
▁compet	-1428
▁band	-1429
augh	-1430
estern	-1431
▁become	-1432
▁Although	-1433
ize	-1434
self	-1435
▁del	-1436
▁With	-1437
▁times	-1438
▁continued	-1439
yn	-1440
▁!	-1441
▁conv	-1442
▁claim	-1443
▁produced	-1444
▁22	-1445
▁my	-1446
▁2012	-1447
▁days	-1448
▁strong	-1449
▁include	-1450
par	-1451
outher	-1452
▁According	-1453
enc	-1454
hem	-1455
▁West	-1456
▁polit	-1457
▁however	-1458
outhern	-1459
▁beh	-1460
ering	-1461
▁among	-1462
▁without	-1463
▁av	-1464
▁Geor	-1465
▁exper	-1466
▁career	-1467
hern	-1468
▁arch	-1469
▁children	-1470
yle	-1471
▁sk	-1472
aces	-1473
▁histor	-1474
▁history	-1475
eal	-1476
roy	-1477
lear	-1478
▁Port	-1479
apan	-1480
rodu	-1481
▁Canad	-1482
▁every	-1483
ring	-1484
▁fre	-1485
▁company	-1486
ices	-1487
▁further	-1488
▁reported	-1489
ald	-1490
▁total	-1491
▁28	-1492
▁you	-1493
▁prof	-1494
ush	-1495
▁Per	-1496
▁Ste	-1497
▁Japan	-1498
▁mag	-1499
▁prop	-1500
rent	-1501
▁find	-1502
ront	-1503
▁vict	-1504
▁exc	-1505
▁gave	-1506
urs	-1507
▁Cent	-1508
▁order	-1509
arm	-1510
▁help	-1511
▁chart	-1512
eter	-1513
pped	-1514
▁Feder	-1515
▁commun	-1516
▁particular	-1517
▁Ed	-1518
▁Afric	-1519
oung	-1520
▁spe	-1521
▁invol	-1522
uss	-1523
▁ft	-1524
▁body	-1525
rat	-1526
ffic	-1527
▁Dav	-1528
ailed	-1529
iment	-1530
▁production	-1531
reet	-1532
ising	-1533
▁chang	-1534
▁having	-1535
▁Comp	-1536
▁Gener	-1537
levision	-1538
ope	-1539
echn	-1540
▁stat	-1541
▁obs	-1542
osaur	-1543
▁defe	-1544
▁military	-1545
▁ter	-1546
aying	-1547
▁post	-1548
▁members	-1549
af	-1550
isc	-1551
ably	-1552
reek	-1553
▁190	-1554
▁gen	-1555
▁position	-1556
ges	-1557
osp	-1558
ream	-1559
ither	-1560
▁island	-1561
▁signific	-1562
▁developed	-1563
▁El	-1564
▁sit	-1565
▁2013	-1566
▁seen	-1567
▁struct	-1568
▁project	-1569
ebru	-1570
▁Song	-1571
ne	-1572
▁27	-1573
▁pat	-1574
▁eight	-1575
ape	-1576
▁Ass	-1577
▁less	-1578
▁miles	-1579
na	-1580
▁black	-1581
▁given	-1582
▁influ	-1583
▁press	-1584
▁Church	-1585
ones	-1586
▁Atl	-1587
▁plan	-1588
▁making	-1589
▁never	-1590
irc	-1591
rick	-1592
▁should	-1593
▁cr	-1594
▁equ	-1595
alion	-1596
antic	-1597
▁Roman	-1598
▁arr	-1599
▁Mich	-1600
▁across	-1601
▁country	-1602
▁reached	-1603
ration	-1604
▁While	-1605
▁America	-1606
ampionship	-1607
aun	-1608
▁Su	-1609
sequ	-1610
▁Road	-1611
▁read	-1612
fic	-1613
iety	-1614
omen	-1615
▁surv	-1616
▁Febru	-1617
▁sound	-1618
▁control	-1619
▁program	-1620
▁February	-1621
▁jo	-1622
▁how	-1623
▁lost	-1624
ese	-1625
▁lim	-1626
itive	-1627
▁hour	-1628
▁want	-1629
reland	-1630
▁University	-1631
rem	-1632
aren	-1633
▁comb	-1634
▁father	-1635
▁Ireland	-1636
▁cat	-1637
▁Jack	-1638
▁These	-1639
▁novel	-1640
▁popular	-1641
▁away	-1642
▁earl	-1643
▁critic	-1644
▁forces	-1645
▁Ne	-1646
ploy	-1647
▁seven	-1648
▁author	-1649
▁50	-1650
▁fun	-1651
▁noted	-1652
▁announ	-1653
ael	-1654
itar	-1655
sp	-1656
▁fem	-1657
▁important	-1658
▁throughout	-1659
ico	-1660
vers	-1661
▁rad	-1662
▁ships	-1663
▁white	-1664
▁thought	-1665
oon	-1666
work	-1667
▁soc	-1668
ford	-1669
▁cult	-1670
▁using	-1671
▁Rec	-1672
▁site	-1673
▁somet	-1674
▁William	-1675
▁returned	-1676
ords	-1677
ster	-1678
▁wat	-1679
▁ground	-1680
▁significant	-1681
▁Pal	-1682
▁Reg	-1683
▁does	-1684
▁Min	-1685
▁red	-1686
▁High	-1687
fall	-1688
iness	-1689
▁fire	-1690
▁stated	-1691
▁present	-1692
oll	-1693
▁Cor	-1694
▁proc	-1695
ille	-1696
▁hig	-1697
▁mix	-1698
▁pra	-1699
▁Ha	-1700
▁gl	-1701
ades	-1702
▁age	-1703
▁cell	-1704
▁good	-1705
▁areas	-1706
▁modern	-1707
lished	-1708
▁General	-1709
▁performed	-1710
ogn	-1711
rab	-1712
▁bar	-1713
▁Black	-1714
▁manag	-1715
▁various	-1716
▁god	-1717
▁2005	-1718
▁light	-1719
▁prote	-1720
br	-1721
ym	-1722
aul	-1723
▁er	-1724
▁pain	-1725
▁events	-1726
▁introdu	-1727
▁hurricane	-1728
▁Ang	-1729
▁peak	-1730
▁feet	-1731
▁coast	-1732
▁human	-1733
▁formed	-1734
▁national	-1735
▁established	-1736
ki	-1737
ries	-1738
▁cou	-1739
eared	-1740
imately	-1741
▁television	-1742
iec	-1743
▁sw	-1744
▁Cal	-1745
▁nuc	-1746
▁2004	-1747
▁fact	-1748
ination	-1749
▁activ	-1750
▁house	-1751
▁friend	-1752
▁highway	-1753
▁div	-1754
▁ord	-1755
▁pit	-1756
▁building	-1757
▁population	-1758
vent	-1759
▁match	-1760
▁189	-1761
▁Ear	-1762
▁law	-1763
▁son	-1764
▁ball	-1765
▁range	-1766
▁started	-1767
esc	-1768
▁Ex	-1769
▁cast	-1770
▁died	-1771
▁County	-1772
▁Australia	-1773
▁bo	-1774
most	-1775
▁cor	-1776
▁enc	-1777
▁created	-1778
▁Gl	-1779
▁Sw	-1780
rest	-1781
used	-1782
▁adm	-1783
▁cert	-1784
▁techn	-1785
▁ten	-1786
field	-1787
reg	-1788
▁You	-1789
▁felt	-1790
▁prim	-1791
▁scored	-1792
ks	-1793
utes	-1794
▁Rober	-1795
▁development	-1796
epend	-1797
▁born	-1798
▁himself	-1799
▁located	-1800
▁successful	-1801
eth	-1802
idd	-1803
▁Air	-1804
▁Mag	-1805
▁decl	-1806
▁full	-1807
con	-1808
ivil	-1809
isted	-1810
ument	-1811
▁pred	-1812
▁becom	-1813
ycl	-1814
▁ide	-1815
▁Lond	-1816
▁caused	-1817
▁Kingdom	-1818
▁writing	-1819
▁originally	-1820
▁went	-1821
▁entire	-1822
▁destroy	-1823
▁official	-1824
▁mm	-1825
abor	-1826
asing	-1827
ief	-1828
ino	-1829
▁Mor	-1830
▁London	-1831
ological	-1832
▁Federer	-1833
ality	-1834
iting	-1835
▁need	-1836
▁Ham	-1837
▁Mon	-1838
▁tre	-1839
▁Rich	-1840
▁begin	-1841
▁cross	-1842
▁occur	-1843
▁performance	-1844
ara	-1845
ened	-1846
ample	-1847
▁Town	-1848
idence	-1849
▁style	-1850
▁interest	-1851
less	-1852
▁put	-1853
▁goal	-1854
▁others	-1855
oo	-1856
▁29	-1857
▁see	-1858
▁construction	-1859
omb	-1860
ator	-1861
ounc	-1862
▁Har	-1863
▁look	-1864
▁vill	-1865
▁James	-1866
▁mother	-1867
▁produc	-1868
ky	-1869
rie	-1870
aign	-1871
▁pri	-1872
▁relig	-1873
iated	-1874
ublic	-1875
▁2015	-1876
▁bird	-1877
▁stars	-1878
▁discover	-1879
urb	-1880
▁rank	-1881
▁get	-1882
▁rev	-1883
gr	-1884
ray	-1885
ases	-1886
▁Army	-1887
▁assoc	-1888
▁mount	-1889
ization	-1890
▁Island	-1891
▁features	-1892
day	-1893
alth	-1894
▁southern	-1895
▁completed	-1896
▁characters	-1897
ama	-1898
ica	-1899
▁ke	-1900
arch	-1901
ique	-1902
oyal	-1903
▁2003	-1904
▁Bill	-1905
aff	-1906
ids	-1907
▁players	-1908
aly	-1909
ata	-1910
▁once	-1911
▁stri	-1912
▁region	-1913
▁political	-1914
▁relations	-1915
▁fac	-1916
craft	-1917
igade	-1918
▁Miss	-1919
▁grow	-1920
ficult	-1921
▁tradition	-1922
ius	-1923
ully	-1924
▁sex	-1925
▁broad	-1926
▁colle	-1927
▁force	-1928
▁fif	-1929
▁too	-1930
▁voc	-1931
▁aver	-1932
elling	-1933
lected	-1934
▁estim	-1935
▁little	-1936
ivid	-1937
▁God	-1938
▁lik	-1939
▁night	-1940
▁process	-1941
▁conn	-1942
▁David	-1943
olution	-1944
▁battle	-1945
▁difficult	-1946
▁31	-1947
▁To	-1948
ores	-1949
▁fig	-1950
▁ste	-1951
▁added	-1952
▁promot	-1953
ney	-1954
▁Mad	-1955
▁anim	-1956
▁tour	-1957
ressed	-1958
▁Mount	-1959
▁front	-1960
▁generally	-1961
ump	-1962
▁announced	-1963
irl	-1964
liam	-1965
▁val	-1966
▁Love	-1967
▁Grand	-1968
▁Australian	-1969
duct	-1970
▁Mex	-1971
enced	-1972
▁loss	-1973
▁rock	-1974
▁damage	-1975
▁served	-1976
ana	-1977
cher	-1978
▁tro	-1979
▁burn	-1980
▁least	-1981
▁works	-1982
atic	-1983
leet	-1984
ament	-1985
ummer	-1986
▁circ	-1987
▁fourth	-1988
▁followed	-1989
umb	-1990
▁Som	-1991
▁critics	-1992
▁instead	-1993
itted	-1994
▁able	-1995
liament	-1996
▁appeared	-1997
ecut	-1998
▁Ber	-1999
▁squ	-2000
▁mass	-2001
rought	-2002
▁Co	-2003
▁fav	-2004
▁poem	-2005
▁yard	-2006
gg	-2007
▁vo	-2008
aves	-2009
rict	-2010
ston	-2011
▁ident	-2012
atin	-2013
▁cond	-2014
icated	-2015
▁eastern	-2016
▁remained	-2017
▁live	-2018
▁accom	-2019
▁either	-2020
▁recogn	-2021
▁featured	-2022
ida	-2023
▁mi	-2024
▁Gal	-2025
▁Part	-2026
▁super	-2027
▁weeks	-2028
▁Atlantic	-2029
▁campaign	-2030
▁directed	-2031
▁represent	-2032
▁40	-2033
angu	-2034
aper	-2035
▁let	-2036
▁non	-2037
▁know	-2038
ouncil	-2039
▁proble	-2040
unk	-2041
▁route	-2042
▁study	-2043
▁appearance	-2044
▁35	-2045
here	-2046
▁clos	-2047
▁insp	-2048
▁award	-2049
▁separ	-2050
▁yards	-2051
rap	-2052
▁Cup	-2053
▁Mac	-2054
▁Ser	-2055
▁Two	-2056
▁base	-2057
▁hold	-2058
▁mean	-2059
▁Wales	-2060
▁profess	-2061
ned	-2062
▁Bra	-2063
ights	-2064
▁Pres	-2065
▁guns	-2066
▁quar	-2067
▁redu	-2068
▁commer	-2069
▁condom	-2070
▁eventually	-2071
▁ce	-2072
ee	-2073
play	-2074
▁meet	-2075
▁wall	-2076
gether	-2077
▁behind	-2078
▁months	-2079
▁together	-2080
ih	-2081
▁Ev	-2082
▁Mo	-2083
▁bus	-2084
▁dou	-2085
▁Music	-2086
▁women	-2087
▁Oldham	-2088
▁special	-2089
ects	-2090
uter	-2091
▁Some	-2092
▁coll	-2093
▁lack	-2094
▁round	-2095
▁central	-2096
▁Em	-2097
▁bi	-2098
board	-2099
▁wife	-2100
▁indust	-2101
da	-2102
inal	-2103
▁Act	-2104
▁Sec	-2105
▁Care	-2106
▁France	-2107
▁individ	-2108
▁elements	-2109
▁Battalion	-2110
ude	-2111
▁Im	-2112
▁taken	-2113
▁general	-2114
ency	-2115
▁Pol	-2116
▁Rep	-2117
ength	-2118
ption	-2119
▁impro	-2120
▁comment	-2121
▁regular	-2122
uk	-2123
▁Bro	-2124
▁close	-2125
▁heavy	-2126
▁opened	-2127
odes	-2128
▁Bus	-2129
▁creat	-2130
▁young	-2131
▁contract	-2132
com	-2133
iber	-2134
iers	-2135
stit	-2136
▁aud	-2137
▁current	-2138
▁example	-2139
▁relationship	-2140
▁z	-2141
▁’	-2142
vest	-2143
▁Cro	-2144
▁laun	-2145
▁Championship	-2146
to	-2147
emy	-2148
iol	-2149
ways	-2150
▁vol	-2151
▁2014	-2152
▁Flor	-2153
▁resear	-2154
▁northern	-2155
cast	-2156
chie	-2157
west	-2158
▁wid	-2159
ellow	-2160
heast	-2161
oring	-2162
▁East	-2163
▁suff	-2164
▁killed	-2165
ask	-2166
▁Tech	-2167
▁agre	-2168
▁king	-2169
▁meas	-2170
▁sequ	-2171
▁Other	-2172
alt	-2173
▁Hen	-2174
▁dev	-2175
▁far	-2176
ordan	-2177
▁2001	-2178
ements	-2179
▁largest	-2180
▁leading	-2181
off	-2182
▁NY	-2183
▁ly	-2184
▁188	-2185
ending	-2186
▁langu	-2187
▁reach	-2188
▁winds	-2189
▁Street	-2190
▁length	-2191
▁service	-2192
mar	-2193
▁Brown	-2194
▁finished	-2195
ipp	-2196
▁Sl	-2197
illa	-2198
ylan	-2199
▁mot	-2200
▁ren	-2201
istic	-2202
▁reve	-2203
▁Carol	-2204
▁Jordan	-2205
▁decided	-2206
▁Ke	-2207
irth	-2208
▁beg	-2209
▁cop	-2210
▁fall	-2211
▁prob	-2212
iction	-2213
▁Dylan	-2214
▁appoint	-2215
▁Bo	-2216
iron	-2217
iding	-2218
ential	-2219
▁Carey	-2220
▁playing	-2221
▁towards	-2222
▁aircraft	-2223
now	-2224
igned	-2225
▁mater	-2226
▁Follow	-2227
▁Company	-2228
▁International	-2229
▁ve	-2230
orse	-2231
▁bur	-2232
▁Robert	-2233
▁believed	-2234
acy	-2235
oph	-2236
cial	-2237
reng	-2238
▁arm	-2239
▁exist	-2240
ought	-2241
▁Mary	-2242
▁draw	-2243
▁sour	-2244
▁Hel	-2245
▁San	-2246
▁nar	-2247
ography	-2248
▁member	-2249
▁points	-2250
▁travel	-2251
▁Var	-2252
▁upon	-2253
▁almost	-2254
▁saying	-2255
▁Florida	-2256
▁brought	-2257
▁respect	-2258
ule	-2259
ulf	-2260
▁Pe	-2261
azine	-2262
▁miss	-2263
▁test	-2264
▁action	-2265
▁subsequ	-2266
▁football	-2267
▁provided	-2268
▁Following	-2269
▁°	-2270
ators	-2271
▁cost	-2272
▁host	-2273
▁stru	-2274
▁achie	-2275
▁goals	-2276
▁streng	-2277
▁earlier	-2278
ett	-2279
ills	-2280
▁hon	-2281
▁reb	-2282
antry	-2283
cript	-2284
▁free	-2285
▁love	-2286
▁move	-2287
ounter	-2288
▁Royal	-2289
▁fight	-2290
▁flood	-2291
▁intens	-2292
▁director	-2293
ago	-2294
▁surf	-2295
ington	-2296
▁opening	-2297
rey	-2298
ceed	-2299
iter	-2300
ving	-2301
▁nec	-2302
▁accept	-2303
▁engine	-2304
▁Michael	-2305
▁respons	-2306
▁European	-2307
▁Du	-2308
anna	-2309
▁Day	-2310
▁mph	-2311
▁Mark	-2312
▁Most	-2313
▁Thom	-2314
▁diss	-2315
▁conduct	-2316
▁victory	-2317
yd	-2318
▁Cr	-2319
▁ill	-2320
▁Phil	-2321
▁cycl	-2322
▁inform	-2323
▁designed	-2324
▁Wil	-2325
▁saw	-2326
▁1990	-2327
▁worked	-2328
▁outside	-2329
uck	-2330
val	-2331
head	-2332
hing	-2333
▁Bay	-2334
▁cut	-2335
▁mer	-2336
▁From	-2337
▁past	-2338
▁female	-2339
▁operations	-2340
ze	-2341
eum	-2342
iff	-2343
▁Gr	-2344
▁Sm	-2345
cent	-2346
▁Red	-2347
erved	-2348
▁account	-2349
▁allowed	-2350
oms	-2351
▁arg	-2352
▁fort	-2353
▁fund	-2354
ishing	-2355
▁above	-2356
osaurus	-2357
▁rather	-2358
▁station	-2359
▁Christian	-2360
aps	-2361
ify	-2362
▁Kh	-2363
ania	-2364
pper	-2365
▁185	-2366
▁500	-2367
▁Sun	-2368
▁2000	-2369
atural	-2370
▁George	-2371
▁employ	-2372
▁object	-2373
▁reason	-2374
▁quarter	-2375
▁estimated	-2376
▁particularly	-2377
ita	-2378
wood	-2379
▁Vir	-2380
ander	-2381
conom	-2382
▁1970	-2383
▁Play	-2384
▁case	-2385
▁desp	-2386
▁Mexico	-2387
▁School	-2388
▁wanted	-2389
▁remains	-2390
▁construct	-2391
▁Val	-2392
▁Best	-2393
▁river	-2394
▁compos	-2395
▁36	-2396
▁Ag	-2397
▁net	-2398
▁rul	-2399
usion	-2400
▁pract	-2401
ecutive	-2402
▁Qu	-2403
▁McC	-2404
▁foc	-2405
ronic	-2406
ground	-2407
▁debut	-2408
▁treat	-2409
▁praised	-2410
▁previously	-2411
co	-2412
▁Ir	-2413
▁pur	-2414
erous	-2415
▁Paul	-2416
▁nine	-2417
▁nomin	-2418
▁scene	-2419
bit	-2420
▁Ma	-2421
▁poor	-2422
▁avail	-2423
▁hours	-2424
▁possible	-2425
ped	-2426
▁ey	-2427
enes	-2428
▁esp	-2429
▁hit	-2430
ville	-2431
ession	-2432
▁touch	-2433
artment	-2434
▁Indian	-2435
▁except	-2436
hib	-2437
oid	-2438
▁45	-2439
▁My	-2440
ites	-2441
▁186	-2442
▁inj	-2443
▁syn	-2444
ching	-2445
▁date	-2446
▁must	-2447
▁joined	-2448
▁specific	-2449
▁Ac	-2450
down	-2451
▁But	-2452
acing	-2453
thlet	-2454
▁whom	-2455
▁parts	-2456
▁plann	-2457
▁stage	-2458
▁think	-2459
▁working	-2460
▁Ol	-2461
aker	-2462
▁Pac	-2463
▁Game	-2464
▁Gold	-2465
▁crew	-2466
▁mult	-2467
▁House	-2468
▁average	-2469
▁involved	-2470
▁depression	-2471
go	-2472
medi	-2473
orts	-2474
▁Med	-2475
odies	-2476
rated	-2477
▁Desp	-2478
▁grad	-2479
▁hous	-2480
▁signed	-2481
▁brother	-2482
▁rap	-2483
▁hard	-2484
▁approx	-2485
▁writer	-2486
sel	-2487
ault	-2488
onst	-2489
aries	-2490
▁quick	-2491
▁affect	-2492
▁forest	-2493
▁highest	-2494
▁village	-2495
zz	-2496
urg	-2497
▁60	-2498
▁op	-2499
▁Tor	-2500
▁names	-2501
▁Despite	-2502
▁manager	-2503
▁western	-2504
▁interview	-2505
▁suggested	-2506
mb	-2507
ems	-2508
ateg	-2509
▁size	-2510
▁Super	-2511
▁business	-2512
▁replaced	-2513
▁recording	-2514
▁commercial	-2515
▁UK	-2516
▁viol	-2517
anding	-2518
▁Creek	-2519
▁subject	-2520
▁Republic	-2521
▁evidence	-2522
▁material	-2523
onc	-2524
aint	-2525
▁Wal	-2526
▁cho	-2527
▁gra	-2528
▁mach	-2529
▁rail	-2530
▁territ	-2531
▁Brigade	-2532
▁particip	-2533
abit	-2534
ming	-2535
▁2002	-2536
▁Hall	-2537
▁Angel	-2538
ributed	-2539
▁Japanese	-2540
aby	-2541
oul	-2542
ula	-2543
urt	-2544
▁187	-2545
asion	-2546
▁Rock	-2547
▁pers	-2548
▁rain	-2549
▁wood	-2550
▁itself	-2551
▁reviews	-2552
▁independ	-2553
gl	-2554
▁ap	-2555
back	-2556
▁pen	-2557
atory	-2558
▁gold	-2559
▁heav	-2560
▁race	-2561
▁react	-2562
ecially	-2563
▁invest	-2564
▁placed	-2565
▁regard	-2566
▁Pacific	-2567
▁increased	-2568
tar	-2569
uel	-2570
rang	-2571
▁aut	-2572
▁mem	-2573
▁mixed	-2574
▁change	-2575
▁President	-2576
▁especially	-2577
▁introduced	-2578
bor	-2579
kan	-2580
nal	-2581
▁Dr	-2582
▁di	-2583
▁Hot	-2584
▁fly	-2585
▁White	-2586
▁shows	-2587
▁available	-2588
ani	-2589
▁Dep	-2590
▁neg	-2591
▁whose	-2592
ibility	-2593
▁econom	-2594
▁includes	-2595
▁positive	-2596
▁structure	-2597
▁£	-2598
ari	-2599
enon	-2600
▁Don	-2601
▁Not	-2602
▁hom	-2603
▁Navy	-2604
▁Croat	-2605
▁India	-2606
▁certain	-2607
▁transport	-2608
itz	-2609
band	-2610
▁don	-2611
▁civil	-2612
▁units	-2613
▁league	-2614
▁approximately	-2615
▁-	-2616
▁Fe	-2617
▁Tom	-2618
▁eff	-2619
▁Penn	-2620
▁Star	-2621
▁slow	-2622
▁type	-2623
ulated	-2624
▁block	-2625
▁court	-2626
▁reveal	-2627
▁probably	-2628
ires	-2629
tain	-2630
▁183	-2631
▁Stud	-2632
hedral	-2633
▁Henry	-2634
▁minor	-2635
▁score	-2636
▁center	-2637
▁depict	-2638
▁states	-2639
▁studio	-2640
▁surround	-2641
▁transfer	-2642
BC	-2643
gar	-2644
▁38	-2645
gypt	-2646
▁Jew	-2647
▁cal	-2648
▁doc	-2649
▁pot	-2650
ready	-2651
▁Viet	-2652
▁shot	-2653
▁soon	-2654
▁First	-2655
▁break	-2656
▁temper	-2657
▁Billboard	-2658
enth	-2659
rian	-2660
▁Ever	-2661
▁Sing	-2662
▁priv	-2663
▁Peter	-2664
▁daugh	-2665
▁Thomas	-2666
▁related	-2667
▁international	-2668
ota	-2669
▁Art	-2670
▁III	-2671
▁abs	-2672
▁sem	-2673
ranch	-2674
▁Many	-2675
▁bill	-2676
▁Assoc	-2677
▁Egypt	-2678
▁Canada	-2679
▁forced	-2680
▁proper	-2681
▁turned	-2682
▁Canadian	-2683
▁80	-2684
olic	-2685
▁Zeal	-2686
▁wide	-2687
▁birth	-2688
▁claimed	-2689
▁usually	-2690
▁pressure	-2691
▁community	-2692
▁sometimes	-2693
for	-2694
iqu	-2695
iano	-2696
▁Sch	-2697
▁cru	-2698
osing	-2699
▁fail	-2700
▁situ	-2701
ilities	-2702
▁Virgin	-2703
▁increasing	-2704
▁La	-2705
reak	-2706
▁Pat	-2707
▁Ter	-2708
▁tow	-2709
▁unc	-2710
▁stay	-2711
▁lower	-2712
▁Africa	-2713
▁troops	-2714
▁winning	-2715
owl	-2716
ume	-2717
▁Tur	-2718
▁key	-2719
▁tru	-2720
▁give	-2721
▁Union	-2722
▁lines	-2723
ability	-2724
▁Zealand	-2725
▁despite	-2726
▁Dj	-2727
▁Je	-2728
cean	-2729
rics	-2730
▁cas	-2731
arily	-2732
▁Hist	-2733
▁disp	-2734
▁food	-2735
▁might	-2736
▁spent	-2737
ication	-2738
▁Awards	-2739
▁limited	-2740
▁religious	-2741
ios	-2742
omm	-2743
iest	-2744
ruit	-2745
▁esc	-2746
orial	-2747
▁1995	-2748
▁Alkan	-2749
▁clear	-2750
▁fifth	-2751
▁amount	-2752
▁taking	-2753
▁Richard	-2754
▁contains	-2755
rd	-2756
▁75	-2757
inct	-2758
ship	-2759
▁ask	-2760
▁Mont	-2761
▁piec	-2762
▁Award	-2763
▁ended	-2764
▁already	-2765
▁capital	-2766
▁damaged	-2767
▁surface	-2768
ification	-2769
▁Regiment	-2770
▁complete	-2771
▁initially	-2772
edy	-2773
oys	-2774
▁Os	-2775
▁Sy	-2776
▁fr	-2777
pool	-2778
▁Cer	-2779
iforn	-2780
owler	-2781
▁That	-2782
▁chap	-2783
veston	-2784
▁Scott	-2785
▁nucle	-2786
▁paren	-2787
▁larger	-2788
▁nearly	-2789
▁musical	-2790
▁training	-2791
▁Galveston	-2792
▁according	-2793
aut	-2794
▁phys	-2795
▁trib	-2796
porary	-2797
▁failed	-2798
▁passed	-2799
▁police	-2800
▁running	-2801
▁language	-2802
▁remaining	-2803
▁?	-2804
irt	-2805
oor	-2806
rag	-2807
ises	-2808
▁Bel	-2809
▁anc	-2810
▁sea	-2811
▁1960	-2812
▁word	-2813
▁determ	-2814
▁listed	-2815
▁screen	-2816
ils	-2817
▁cm	-2818
vert	-2819
elled	-2820
▁come	-2821
▁feel	-2822
▁male	-2823
▁Great	-2824
▁Since	-2825
▁contr	-2826
▁frequ	-2827
ference	-2828
▁remain	-2829
▁additional	-2830
ha	-2831
lymp	-2832
▁Haw	-2833
▁Que	-2834
▁Busch	-2835
▁Later	-2836
▁quest	-2837
▁latter	-2838
▁becoming	-2839
▁required	-2840
▁beginning	-2841
▁president	-2842
AA	-2843
▁x	-2844
etic	-2845
▁Bey	-2846
▁den	-2847
▁der	-2848
▁2016	-2849
▁Olymp	-2850
▁shown	-2851
▁Govern	-2852
▁enough	-2853
▁section	-2854
▁Californ	-2855
▁Parliament	-2856
NA	-2857
gu	-2858
gian	-2859
ouri	-2860
▁che	-2861
▁sil	-2862
▁Card	-2863
▁threat	-2864
▁Hurricane	-2865
▁appointed	-2866
wh	-2867
gen	-2868
ror	-2869
ste	-2870
ylv	-2871
bers	-2872
▁Ant	-2873
▁Arab	-2874
▁Hero	-2875
▁Isra	-2876
▁told	-2877
uments	-2878
▁Alice	-2879
▁Irish	-2880
▁Times	-2881
▁remov	-2882
▁mention	-2883
asy	-2884
ties	-2885
▁Jer	-2886
▁Law	-2887
▁ded	-2888
▁Cong	-2889
▁stop	-2890
▁Latin	-2891
▁Fowler	-2892
▁Israel	-2893
▁social	-2894
▁complet	-2895
▁consist	-2896
▁percent	-2897
▁Association	-2898
den	-2899
anas	-2900
rack	-2901
▁Mer	-2902
▁Ver	-2903
▁imm	-2904
▁deal	-2905
▁Colle	-2906
▁changes	-2907
▁network	-2908
▁professional	-2909
of	-2910
uals	-2911
▁Met	-2912
▁cer	-2913
▁1980	-2914
▁Nort	-2915
▁Year	-2916
▁cele	-2917
▁face	-2918
▁Liver	-2919
▁makes	-2920
▁occup	-2921
▁metres	-2922
▁smaller	-2923
▁broadcast	-2924
ga	-2925
uf	-2926
▁Nic	-2927
▁emb	-2928
▁happ	-2929
▁pair	-2930
reater	-2931
▁birds	-2932
▁forms	-2933
▁going	-2934
▁prior	-2935
▁visit	-2936
▁immedi	-2937
tt	-2938
ifa	-2939
men	-2940
aval	-2941
hens	-2942
inist	-2943
stant	-2944
▁Inter	-2945
▁issue	-2946
▁arrived	-2947
▁meaning	-2948
▁ordered	-2949
▁Liverpool	-2950
▁California	-2951
▁Up	-2952
ples	-2953
▁sat	-2954
aring	-2955
▁Cath	-2956
▁girl	-2957
▁stra	-2958
▁liter	-2959
atively	-2960
▁Charles	-2961
▁Missouri	-2962
aven	-2963
ells	-2964
ests	-2965
gely	-2966
▁lab	-2967
anies	-2968
ortun	-2969
▁rare	-2970
▁mostly	-2971
▁feature	-2972
▁discovered	-2973
oud	-2974
imum	-2975
▁Soc	-2976
▁sch	-2977
lands	-2978
rison	-2979
▁1999	-2980
▁Haifa	-2981
▁moving	-2982
▁ranked	-2983
▁script	-2984
▁defeated	-2985
▁Its	-2986
▁educ	-2987
idents	-2988
▁minute	-2989
▁provide	-2990
▁traffic	-2991
▁proteins	-2992
bert	-2993
fect	-2994
anish	-2995
ector	-2996
imate	-2997
▁army	-2998
▁flow	-2999
▁Vietn	-3000
▁indic	-3001
▁appears	-3002
▁concern	-3003
▁forward	-3004
▁decision	-3005
▁intended	-3006
▁problems	-3007
▁Jin	-3008
▁Squ	-3009
▁jud	-3010
inent	-3011
▁prem	-3012
▁Enter	-3013
▁adapt	-3014
▁coach	-3015
▁colon	-3016
▁fleet	-3017
▁radio	-3018
▁likely	-3019
▁Council	-3020
▁minutes	-3021
▁constructed	-3022
unt	-3023
▁47	-3024
lict	-3025
▁Hol	-3026
▁Pit	-3027
riage	-3028
▁learn	-3029
▁contem	-3030
▁cyclone	-3031
▁largely	-3032
▁episodes	-3033
▁majority	-3034
ny	-3035
well	-3036
▁184	-3037
▁App	-3038
▁Sur	-3039
▁und	-3040
▁Over	-3041
▁appl	-3042
change	-3043
▁double	-3044
▁slight	-3045
▁entered	-3046
▁overall	-3047
ows	-3048
▁400	-3049
imony	-3050
▁deep	-3051
▁link	-3052
▁meth	-3053
▁park	-3054
▁runs	-3055
▁graph	-3056
▁woman	-3057
▁groups	-3058
▁Central	-3059
▁launched	-3060
▁referred	-3061
▁supported	-3062
ma	-3063
nes	-3064
▁90	-3065
▁FI	-3066
rief	-3067
▁cle	-3068
▁1993	-3069
▁dead	-3070
▁exam	-3071
▁lyrics	-3072
▁whether	-3073
▁Carolina	-3074
▁Ho	-3075
▁If	-3076
enty	-3077
onse	-3078
▁Mal	-3079
▁Pri	-3080
▁dro	-3081
under	-3082
▁Oper	-3083
▁favor	-3084
▁assist	-3085
▁observ	-3086
▁Another	-3087
▁conclud	-3088
▁32	-3089
▁Po	-3090
essa	-3091
▁How	-3092
▁Jam	-3093
▁Tra	-3094
aches	-3095
▁Fort	-3096
▁bound	-3097
▁lived	-3098
ospital	-3099
▁nature	-3100
▁location	-3101
▁research	-3102
▁establish	-3103
▁lo	-3104
amer	-3105
▁Del	-3106
▁Res	-3107
▁fut	-3108
icago	-3109
▁Camb	-3110
▁Scot	-3111
▁tons	-3112
▁vers	-3113
hester	-3114
▁tourn	-3115
▁voice	-3116
▁withd	-3117
▁summer	-3118
▁magazine	-3119
eds	-3120
ria	-3121
ands	-3122
▁Inf	-3123
▁Sol	-3124
▁Tre	-3125
▁env	-3126
▁inn	-3127
itude	-3128
order	-3129
▁1998	-3130
▁jour	-3131
isions	-3132
▁throw	-3133
▁create	-3134
▁longer	-3135
▁Chicago	-3136
▁numbers	-3137
▁product	-3138
▁captured	-3139
▁daughter	-3140
▁touchdown	-3141
AS	-3142
car	-3143
dle	-3144
ners	-3145
▁Ben	-3146
▁kil	-3147
▁vot	-3148
▁1950	-3149
▁Camp	-3150
▁dark	-3151
▁idea	-3152
▁compl	-3153
▁domin	-3154
▁Western	-3155
▁married	-3156
▁response	-3157
▁+	-3158
iny	-3159
ergy	-3160
iami	-3161
iser	-3162
▁Fin	-3163
▁Tex	-3164
▁asp	-3165
▁ens	-3166
urity	-3167
▁Open	-3168
▁adop	-3169
▁cause	-3170
▁metal	-3171
▁theme	-3172
▁always	-3173
▁better	-3174
▁earned	-3175
▁ending	-3176
▁scenes	-3177
▁African	-3178
▁Britain	-3179
▁changed	-3180
▁primary	-3181
▁students	-3182
▁associated	-3183
anz	-3184
quar	-3185
▁dig	-3186
incip	-3187
▁Ital	-3188
▁peaked	-3189
▁transl	-3190
▁attract	-3191
▁concept	-3192
▁compared	-3193
▁occurred	-3194
▁commission	-3195
▁competition	-3196
awn	-3197
imb	-3198
key	-3199
oke	-3200
umn	-3201
▁rh	-3202
▁Ale	-3203
▁Bec	-3204
▁uns	-3205
▁Film	-3206
▁Hill	-3207
▁cred	-3208
▁Earth	-3209
▁meant	-3210
▁newsp	-3211
▁industry	-3212
▁standard	-3213
iva	-3214
sen	-3215
▁BC	-3216
teen	-3217
▁aff	-3218
▁got	-3219
▁try	-3220
athus	-3221
aught	-3222
iring	-3223
▁Foot	-3224
▁Miami	-3225
▁teams	-3226
▁begins	-3227
▁centre	-3228
▁guitar	-3229
▁office	-3230
▁effects	-3231
ras	-3232
rol	-3233
itor	-3234
▁300	-3235
▁Mos	-3236
▁Rob	-3237
eding	-3238
ishop	-3239
stein	-3240
▁Jane	-3241
▁done	-3242
▁money	-3243
▁piano	-3244
▁staff	-3245
▁Series	-3246
▁leaving	-3247
▁Northern	-3248
▁suffered	-3249
ex	-3250
ken	-3251
nel	-3252
▁70	-3253
arts	-3254
itte	-3255
uing	-3256
▁mur	-3257
▁Under	-3258
▁schol	-3259
▁access	-3260
▁records	-3261
▁proposed	-3262
▁starting	-3263
het	-3264
olf	-3265
▁33	-3266
▁39	-3267
▁TV	-3268
▁ult	-3269
athan	-3270
▁Russ	-3271
▁Tour	-3272
▁acqu	-3273
▁mole	-3274
▁path	-3275
▁thus	-3276
▁brief	-3277
▁films	-3278
itation	-3279
▁Portug	-3280
▁marked	-3281
▁inspired	-3282
ady	-3283
pan	-3284
▁Rh	-3285
ourt	-3286
sylv	-3287
▁dom	-3288
adium	-3289
anced	-3290
inese	-3291
▁1996	-3292
▁Fore	-3293
▁Mart	-3294
▁Serv	-3295
▁cann	-3296
▁dram	-3297
▁norm	-3298
▁Frank	-3299
▁Sever	-3300
▁Texas	-3301
▁plans	-3302
▁rapid	-3303
▁upper	-3304
▁status	-3305
▁Pennsylv	-3306
▁approach	-3307
▁composed	-3308
▁election	-3309
II	-3310
uff	-3311
iant	-3312
oncé	-3313
▁Mil	-3314
▁Rout	-3315
▁keep	-3316
orning	-3317
▁blood	-3318
▁grant	-3319
▁whole	-3320
▁future	-3321
▁Beyoncé	-3322
▁Chinese	-3323
▁Spanish	-3324
▁complex	-3325
▁natural	-3326
▁quickly	-3327
▁buildings	-3328
▁traditional	-3329
agon	-3330
▁box	-3331
alled	-3332
ously	-3333
▁dise	-3334
▁emer	-3335
undred	-3336
▁focus	-3337
▁genus	-3338
▁space	-3339
▁archit	-3340
▁method	-3341
▁covered	-3342
▁discuss	-3343
▁finally	-3344
▁greater	-3345
▁underst	-3346
▁Virginia	-3347
▁assigned	-3348
▁conducted	-3349
▁subsequently	-3350
leg	-3351
▁Sam	-3352
▁lif	-3353
▁mom	-3354
▁ran	-3355
▁blue	-3356
▁self	-3357
selves	-3358
▁artist	-3359
▁copies	-3360
▁protein	-3361
▁distance	-3362
▁presence	-3363
▁themselves	-3364
TV	-3365
lo	-3366
bar	-3367
▁Lo	-3368
cend	-3369
ican	-3370
▁hop	-3371
▁sus	-3372
▁doll	-3373
▁kick	-3374
usband	-3375
▁Three	-3376
▁purch	-3377
▁xenon	-3378
▁collect	-3379
▁private	-3380
▁directly	-3381
ien	-3382
▁AI	-3383
▁ri	-3384
imin	-3385
▁Six	-3386
▁deg	-3387
▁hot	-3388
▁fans	-3389
▁phot	-3390
▁Tessa	-3391
▁notes	-3392
▁takes	-3393
stitute	-3394
▁bodies	-3395
▁Germany	-3396
▁constit	-3397
▁Anderson	-3398
▁fighting	-3399
▁movement	-3400
▁cathedral	-3401
olk	-3402
▁76	-3403
▁Tw	-3404
aded	-3405
cing	-3406
odon	-3407
▁yet	-3408
▁sett	-3409
▁Hawai	-3410
▁Route	-3411
▁earth	-3412
▁fruit	-3413
▁shoot	-3414
▁terms	-3415
▁vocals	-3416
▁Jackson	-3417
▁stories	-3418
▁consider	-3419
adm	-3420
umed	-3421
▁Gar	-3422
▁Mey	-3423
▁job	-3424
ounds	-3425
▁Lake	-3426
▁anal	-3427
▁Chris	-3428
▁active	-3429
▁annual	-3430
▁defeat	-3431
▁helped	-3432
▁living	-3433
▁native	-3434
▁raised	-3435
▁awarded	-3436
▁condoms	-3437
▁initial	-3438
▁Tropical	-3439
▁collection	-3440
▁Pennsylvania	-3441
aha	-3442
cer	-3443
rid	-3444
▁Er	-3445
itch	-3446
room	-3447
▁Hum	-3448
▁Out	-3449
▁Tem	-3450
▁max	-3451
▁Tenn	-3452
▁Turn	-3453
▁plot	-3454
▁Colon	-3455
▁Light	-3456
▁trees	-3457
ologist	-3458
▁confir	-3459
▁issued	-3460
▁sexual	-3461
▁Catholic	-3462
▁critical	-3463
▁destroyed	-3464
mas	-3465
raw	-3466
▁42	-3467
▁Om	-3468
ibly	-3469
▁Nor	-3470
anasi	-3471
ening	-3472
▁1940	-3473
▁Mill	-3474
▁poly	-3475
lement	-3476
tained	-3477
▁Ceres	-3478
▁brown	-3479
▁means	-3480
▁sched	-3481
▁Guitar	-3482
▁agreed	-3483
▁celebr	-3484
▁inters	-3485
▁market	-3486
▁sevent	-3487
▁Highway	-3488
▁counter	-3489
▁figures	-3490
▁Varanasi	-3491
▁controll	-3492
▁marriage	-3493
▁producer	-3494
▁influence	-3495
hou	-3496
lin	-3497
anks	-3498
ares	-3499
daen	-3500
eway	-3501
omer	-3502
oned	-3503
send	-3504
▁big	-3505
▁lay	-3506
▁ris	-3507
aging	-3508
uries	-3509
▁1930	-3510
▁Just	-3511
▁purp	-3512
tation	-3513
▁Odaen	-3514
▁thick	-3515
▁carried	-3516
▁extended	-3517
▁increase	-3518
▁typically	-3519
uit	-3520
▁44	-3521
▁Mr	-3522
anes	-3523
rate	-3524
▁Sal	-3525
▁log	-3526
▁mor	-3527
thing	-3528
▁corn	-3529
▁gods	-3530
▁pick	-3531
▁sets	-3532
▁text	-3533
▁Somal	-3534
▁Storm	-3535
▁grand	-3536
▁party	-3537
▁Center	-3538
▁giving	-3539
▁planned	-3540
▁Football	-3541
▁Odaenathus	-3542
▁experience	-3543
▁responsible	-3544
ón	-3545
hew	-3546
lie	-3547
ging	-3548
ovic	-3549
▁Bol	-3550
▁Lou	-3551
▁Land	-3552
▁Live	-3553
▁Wood	-3554
▁kind	-3555
▁rate	-3556
▁Party	-3557
▁Water	-3558
▁highly	-3559
▁singer	-3560
▁weaken	-3561
▁nuclear	-3562
▁serious	-3563
▁division	-3564
▁51	-3565
▁SR	-3566
▁ox	-3567
aily	-3568
anta	-3569
ends	-3570
reme	-3571
▁Los	-3572
▁Sea	-3573
▁Sov	-3574
▁tar	-3575
▁1991	-3576
▁1994	-3577
▁chem	-3578
▁fell	-3579
▁uses	-3580
▁adult	-3581
▁incor	-3582
▁conver	-3583
▁flight	-3584
▁really	-3585
quarters	-3586
▁Several	-3587
▁prevent	-3588
▁scoring	-3589
▁studies	-3590
▁activity	-3591
▁officers	-3592
▁commented	-3593
▁appearances	-3594
▁information	-3595
yal	-3596
▁du	-3597
like	-3598
rowd	-3599
▁Rev	-3600
▁via	-3601
annel	-3602
▁1992	-3603
▁1997	-3604
▁Acad	-3605
▁Jose	-3606
▁Oliv	-3607
▁purs	-3608
▁rein	-3609
▁Corps	-3610
▁books	-3611
▁Battle	-3612
▁levels	-3613
▁husband	-3614
▁kilomet	-3615
▁parents	-3616
▁variety	-3617
▁Scotland	-3618
▁Townsend	-3619
▁resulted	-3620
▁selected	-3621
▁northeast	-3622
ado	-3623
▁Go	-3624
pted	-3625
rial	-3626
▁Nix	-3627
▁pil	-3628
▁sal	-3629
▁room	-3630
▁symb	-3631
atives	-3632
ective	-3633
▁Cross	-3634
▁bring	-3635
▁vocal	-3636
▁batter	-3637
▁closed	-3638
▁tracks	-3639
▁culture	-3640
▁viewers	-3641
▁slightly	-3642
vin	-3643
▁37	-3644
▁Pet	-3645
▁ang	-3646
▁enj	-3647
ellig	-3648
rical	-3649
▁unit	-3650
illery	-3651
▁Villa	-3652
▁habit	-3653
▁media	-3654
oration	-3655
▁Scient	-3656
▁health	-3657
▁things	-3658
▁waters	-3659
▁allowing	-3660
▁powerful	-3661
▁companies	-3662
▁respectively	-3663
FA	-3664
de	-3665
ss	-3666
hic	-3667
lor	-3668
▁34	-3669
bury	-3670
hood	-3671
▁Tru	-3672
rance	-3673
▁Both	-3674
▁hero	-3675
▁prec	-3676
▁asked	-3677
▁leave	-3678
▁Second	-3679
▁necess	-3680
▁source	-3681
▁presented	-3682
▁historical	-3683
zy	-3684
bon	-3685
ogue	-3686
oses	-3687
abama	-3688
ittee	-3689
▁Midd	-3690
▁anti	-3691
▁bene	-3692
▁talk	-3693
admium	-3694
▁Court	-3695
▁Helms	-3696
▁Paris	-3697
▁below	-3698
▁chall	-3699
▁plays	-3700
▁Jewish	-3701
▁Nicole	-3702
▁inside	-3703
▁nearby	-3704
▁titles	-3705
▁Alabama	-3706
▁question	-3707
▁operation	-3708
ams	-3709
icip	-3710
kare	-3711
rain	-3712
▁Bet	-3713
▁Cons	-3714
▁Like	-3715
▁Saint	-3716
▁Their	-3717
▁Young	-3718
▁speed	-3719
▁types	-3720
▁archae	-3721
▁athlet	-3722
▁College	-3723
▁becomes	-3724
▁observed	-3725
▁opportun	-3726
▁services	-3727
▁architect	-3728
▁individual	-3729
uzz	-3730
▁ir	-3731
eler	-3732
elsh	-3733
▁Jim	-3734
▁inh	-3735
atops	-3736
pping	-3737
track	-3738
▁Long	-3739
▁bomb	-3740
▁prep	-3741
▁rang	-3742
▁rule	-3743
▁Welsh	-3744
▁settle	-3745
▁Italian	-3746
▁concert	-3747
▁hundred	-3748
▁princip	-3749
▁greatest	-3750
▁revealed	-3751
▁separate	-3752
▁soldiers	-3753
▁countries	-3754
▁territory	-3755
▁sn	-3756
aped	-3757
bour	-3758
iate	-3759
onym	-3760
▁Dan	-3761
▁Dem	-3762
▁Ill	-3763
▁Net	-3764
▁spir	-3765
▁walk	-3766
▁Nixon	-3767
▁grass	-3768
▁Museum	-3769
▁dissip	-3770
▁mainly	-3771
▁sister	-3772
▁strugg	-3773
▁widely	-3774
▁advance	-3775
▁quality	-3776
▁Infantry	-3777
▁attempts	-3778
▁strength	-3779
▁Christmas	-3780
▁featuring	-3781
▁something	-3782
▁university	-3783
me	-3784
cul	-3785
▁48	-3786
ails	-3787
ingu	-3788
▁Mog	-3789
▁Rih	-3790
▁har	-3791
▁our	-3792
▁tax	-3793
isher	-3794
▁1986	-3795
▁Burn	-3796
▁fill	-3797
▁poet	-3798
onents	-3799
▁Shiva	-3800
▁instr	-3801
essions	-3802
estival	-3803
▁financ	-3804
▁intern	-3805
▁reject	-3806
▁Rihanna	-3807
▁matches	-3808
▁schools	-3809
▁investig	-3810
bed	-3811
isl	-3812
▁MD	-3813
ware	-3814
▁pow	-3815
house	-3816
izing	-3817
ports	-3818
▁Djed	-3819
▁Vict	-3820
▁beat	-3821
▁fung	-3822
▁aband	-3823
▁crick	-3824
▁rough	-3825
▁Hamels	-3826
▁county	-3827
▁experi	-3828
▁figure	-3829
▁higher	-3830
▁Service	-3831
▁Through	-3832
▁heavily	-3833
▁recover	-3834
▁request	-3835
▁seasons	-3836
▁positions	-3837
▁contemporary	-3838
sc	-3839
iro	-3840
ris	-3841
ura	-3842
erve	-3843
ocks	-3844
▁Mat	-3845
▁ess	-3846
ipped	-3847
▁Club	-3848
▁magn	-3849
▁sout	-3850
▁susp	-3851
▁weap	-3852
▁Omaha	-3853
▁Smith	-3854
▁crowd	-3855
▁theat	-3856
▁trade	-3857
▁issues	-3858
▁multip	-3859
▁needed	-3860
▁unable	-3861
▁Djedkare	-3862
▁mountain	-3863
▁numerous	-3864
▁continues	-3865
▁offensive	-3866
▁Av	-3867
ding	-3868
▁Cat	-3869
▁Sil	-3870
▁Cast	-3871
▁Week	-3872
▁farm	-3873
▁mile	-3874
▁wear	-3875
▁Trans	-3876
▁stone	-3877
▁vehic	-3878
▁altern	-3879
▁casual	-3880
▁impact	-3881
▁ability	-3882
▁removed	-3883
▁conflict	-3884
▁interact	-3885
▁education	-3886
rane	-3887
▁150	-3888
▁Bob	-3889
▁Jup	-3890
▁Off	-3891
▁mel	-3892
▁thr	-3893
▁tor	-3894
adron	-3895
embly	-3896
intin	-3897
light	-3898
▁Blue	-3899
▁dism	-3900
▁Green	-3901
▁draft	-3902
▁hands	-3903
▁peace	-3904
▁royal	-3905
▁leaders	-3906
▁personal	-3907
▁dedicated	-3908
lus	-3909
mon	-3910
iles	-3911
inth	-3912
inus	-3913
▁Jul	-3914
▁Ott	-3915
▁Way	-3916
▁amb	-3917
peror	-3918
shire	-3919
▁Dist	-3920
▁Spec	-3921
▁wing	-3922
▁Franc	-3923
▁Games	-3924
▁Meyer	-3925
▁carry	-3926
▁exhib	-3927
▁Commun	-3928
▁middle	-3929
▁yellow	-3930
▁disease	-3931
▁intensity	-3932
▁northwest	-3933
▁conditions	-3934
BA	-3935
ka	-3936
▁52	-3937
▁Add	-3938
▁Are	-3939
▁Dam	-3940
▁Fey	-3941
▁pay	-3942
venue	-3943
▁Manc	-3944
▁Time	-3945
▁scul	-3946
▁Ocean	-3947
▁board	-3948
▁enjoy	-3949
▁image	-3950
▁reign	-3951
▁sixth	-3952
isation	-3953
▁Tintin	-3954
▁houses	-3955
▁recent	-3956
▁scient	-3957
▁search	-3958
▁square	-3959
ironment	-3960
▁machine	-3961
▁morning	-3962
▁actually	-3963
▁continue	-3964
▁concluded	-3965
▁newspaper	-3966
▁controvers	-3967
▁represented	-3968
ada	-3969
apo	-3970
use	-3971
▁49	-3972
▁65	-3973
arent	-3974
ograp	-3975
ufact	-3976
▁Wild	-3977
▁plat	-3978
vement	-3979
▁Mogad	-3980
▁cells	-3981
▁specim	-3982
▁titled	-3983
▁Academy	-3984
▁Jupiter	-3985
▁Nations	-3986
▁describes	-3987
▁Department	-3988
▁relatively	-3989
ML	-3990
pe	-3991
▁	-3992
e	-3993
t	-3994
a	-3995
n	-3996
i	-3997
o	-3998
r	-3999
s	-4000
h	-4001
l	-4002
d	-4003
c	-4004
u	-4005
m	-4006
f	-4007
g	-4008
p	-4009
w	-4010
y	-4011
b	-4012
,	-4013
.	-4014
v	-4015
k	-4016
@	-4017
1	-4018
T	-4019
0	-4020
A	-4021
S	-4022
"	-4023
C	-4024
2	-4025
M	-4026
I	-4027
B	-4028
9	-4029
'	-4030
-	-4031
H	-4032
P	-4033
x	-4034
D	-4035
R	-4036
F	-4037
)	-4038
(	-4039
N	-4040
L	-4041
W	-4042
G	-4043
3	-4044
5	-4045
8	-4046
J	-4047
E	-4048
O	-4049
4	-4050
6	-4051
7	-4052
z	-4053
j	-4054
K	-4055
q	-4056
U	-4057
V	-4058
;	-4059
–	-4060
:	-4061
Y	-4062
/	-4063
Z	-4064
—	-4065
é	-4066
%	-4067
Q	-4068
$	-4069
X	-4070
[	-4071
]	-4072
&	-4073
!	-4074
á	-4075
í	-4076
ā	-4077
’	-4078
°	-4079
£	-4080
?	-4081
ó	-4082
+	-4083
è	-4084
ō	-4085
ö	-4086
ü	-4087
ä	-4088
#	-4089
−	-4090
ć	-4091
